00000000000000000000
00000000000000000000
00000000000000000000
00000000000000000000
00000000000000000000
00000000000000000000
00000000000000000000
00000000000000000000
00000000000000000000
00000000000000000000
00000000000000000000
00000000000000000000
00000000000000000000
00000000000001000000
00000000000000000000
00000000000000000000
00000000000000000000
00000000000000000000
00000000000000000000
00000000000000000000
00000000000000000000
00000000000000000000
00000000000000000000
00000000000000000000
00000000000000000000
00000000000000000000
00000000000000000000
00000000000000000000
00000000000000000000
00000000000000000000
00000000000000000000
00000000000000000000
00000000000000000000
00000000000000000000
00000000000000000000
00000000FD0003000000
00000000FE0002000000
00000000FF0001000000
00000000FE0002000000
0100FF00FE0003000000
0100FF00FB0007000000
0000FF00FD0005000000
00000100FE0002000000
00010000FE0002000000
01000300FC00010000FF
00000000FF0002000000
0000FF00FF0002000000
0000FF00FF0002000000
00000000FF0002000000
00000000FF0002000000
00000000FE0002000000
00000000000000000000
00000000000000000000
00000000000000000000
00000000000000000000
00000000000000000000
00000000000000000000
00000000000000000000
00000000000000000000
00000000000000000000
00000000000000000000
00000000000000000000
FF000000FF0002000000
FF000000FB0006000000
00FF0000FB0006000000
FFFE03FFFB0007000000
FFFF00FFF6001000FFFF
FFFE0400F8FE0DFFFEFF
FE000000F3FE16FFFEFE
FD050300F5FC0F00FDFE
FB020500F7FC12FFFDFE
FA0706FDF8FD0EFFFCFE
FA020700F5FF0F00FCFE
FC0100FFFA020B00FDFF
FEFFFDFFFB020D00FFFF
FE01FBFFFE000B00FEFF
FFFFFE00FFFC0A00FF00
FF00FF00FFFE0600FF00
0000FF00FEFF0600FF00
0000FF00FFFF02000000
0000010000FF00000000
000001000000FF000000
00000000000000000000
00000000000000000000
00000000000000000000
00000000000000000000
00000000000000000000
00000000000000000000
00000000000000000000
FF00000300FF00000000
FD000001FD0004000000
FDFF0203FAFF0700FF00
FFFE0207F7FE08FEFE00
FDFC0FFFF2FE0DFEFEFF
FBFA1106F2FD0DFDFCFE
03F71311EEF70DFBF8FD
00F71514E7FA0CFDF7FB
FFFD160DE5FC0FFCF4F9
02F91015EEFD09FCF2F8
FDFE0A11EC0112FCF0F6
FC020B0DEF010CFDF3F8
F8F8070BF40612FEF3FB
F7F8FF0CF40910FFF8FE
F5FBF70BFF0B12FFF2FE
F7F9F50AFE0C0FFFF9FE
F9FDF8FB000A11FFFDFF
FCFDFAFB00030F000100
FFFEFCFE00FC0C000200
FFFEFF00FFFD09000000
000001000002FD000000
00000000000000000000
00000000000000000000
00000000000000000000
00000000000000000000
00000000000000000000
00000000000000000000
0000FF01010001000000
FD01000901FBFFFFFE00
FB01070AFEF700FFFE00
FCFD050DFEFA03FEFDFF
FFFC0A11F9F706FDF9FE
00F8170EF3FA02F9FCFA
FFF71A15EBF804F6FDF7
01F81418ED03FEF2FBF2
F9F91B15EBF9FDF506F1
FC101210EFF3FEF103EF
FC071111E801FEEE08E9
05FF0F0CEB05FDF00AE7
FB010A0EF50802F106E4
01010702F30C0EF6FCEC
F9FC050AF50C0AF8FBF2
FA06F80300020FFA01F4
FA0AFCFD08FC0EFCFEF7
FD03EDF40A1011FDF9F8
FB00F1FA0E0913FDF5FC
F900F3F808100FFFF6FE
F8FAFAFE0812FFFFFEFF
FFFE00000004FE000100
000000000000FF000000
00000000000000000000
00000000000000000000
00000000000000000000
00000000000000000000
0000000300FFFF000000
FF00010600FB0000FF00
FB04FF1002F4FB04FDFF
FC00031300F60104F5FD
FBFC0C1301F4FC00FEF8
00F3120BFDF60204FCF6
FCF10D12FFFFFFFEFDF0
04F5120DF40503F8F8EE
02F3150AF505F0F202FD
01FF130BF2FEF3EE06FB
07030F08EDFBF6EA0B00
08031205F8FBFFE809F3
0F050D0BF600F6E50BEE
0BFA110B0001FCEA0BE2
0FF41101000900E80AE5
0BFF0CFF04080AEB00E5
0005FF020B030DEA05EA
0108FEFB060C0BEC02E9
0110FCF0010D0BF300EF
FD0CFDF60B0C09F8F9EF
F304F4F315150AFCF8F7
F6FFF8FA061108FFFEFC
FCFCFEFFFF0EFFFF02FF
FF00FF00FF0301000000
00000000000000000000
00000000000000000000
00000000000000000000
0000FF01000000000000
00000006FFFCFE02FEFF
FEFF010A01F90004FCFD
FCFF080B07F9FD03FBF7
FBFA0C1206F8F80BF7F0
FBF70E0803FD0005FBF4
FCEF060FFFFBFD0C02F3
F4EA130D0101F707FEF4
01F40810F701F10BFBFB
FEF7050AEF03F00A0203
02F60707F008EFFE0405
09F80B0FE6FEF0F7030C
07F80C0CE601ECF30216
06EE050CE7FEF5FC0F0F
0BF30B0CE5FFF4F9050E
11EE0303F201F7FA080A
10FC060AED08F4F1FB09
08FAFEFFFC0AF9F509FE
0707F9FFFC09FBF707F8
0A0AF9FA010EFCFDFCF2
0B07F4F20F0FFDFA02EC
FD03EEF4171502F805EC
EDFBF7FA072FFDFA01F5
F5FBFDFEFE19FCFE07FE
FBFFFF00020AFEFFFFFF
FF000000000100000000
00000000000000000000
00000001000000000000
000001FF00FF000200FF
00000104FFFCFE07FEFD
FD00090F03F0FF01FFF7
FDFB071408F2FE07FBEE
FCF6130E05F3F60DFAF0
FDF201080601FF1100EC
F6E90B08FF07F90D05F0
FAE60803F607F9140000
FCF40404F507F61301FD
06F00301ED0BF515FD03
01F30209E104F70BFE13
06F40507EA00EF07FC16
05F40411DCFEF6FEF524
07EAFE0CDCFAF3040623
08EE0502E200E9080021
11EFF90BED03EC0DF916
0DF3FCFFEE03EE0E060D
0AFEFB08F807E7070102
0303FEFEFA08EE030504
05FFFD01010BF10205F6
0BFB02F30E10F2FD03F0
07FCEAED0F1FEFFF0EED
F6EEF5F5042EFDFC0DF0
F1F8FCFD0228FBFD00F9
FC0000000108FF00FFFF
00000000000000000000
00000000000000000000
000000000000000200FF
000000FF01FF0004FFFD
FF000202FFFCFF0DFEF7
FCFE091303EAFE0DFFF1
FCFB051008F0FA0F00EF
F9F4080B03F6F31009F3
F7F50806FFF9FC130BED
FBEA06FFF905F90D0402
06E703000205F6090AF6
00E911FFF30AF31002FA
01ED0801F607F614FEFF
07F803FCED02F6180AF9
02FA0406EAFFEF0A050B
07010A0CD7F9EC0CF818
0F04070CDFF0EA14F80F
17F6FF0CE0F7E518FE0D
0BFEFD0EF0FBE51BFA01
0FFBF70AFCFDD9180401
0AFC0609F803E10C03FD
0BF3000CFB0CE50C03F6
05F5F906FB0AEC010C03
0CF2FC02FE0EE8080DF3
10ECFAE50228E90310EB
FFEAEEEE003DF1F90DF6
F2F8F9FB022DF7FD03F9
FB00FF00FB0FFBFF04FF
00000000000100000000
00000000000000000000
000000000000000200FF
0000FF0000000007FFFC
00000304FBFBFE11FDF7
FCFE0915FAEEFF11FDF0
F9F70E0A01F1F50E07F5
FAF40401FAFAF50A0B06
FDF5FF03FCFE000807FC
FBEFFEF8FA0FFA080BFF
FDE802FBFB0BF7030F01
06EF05F1FA0CF4060904
FFF703EBF916F40E0800
FEF902EAFB0FF1120405
0C0200F9F303EC0DFE06
030F080ED7F6F318F306
F91B0616DFEFE818E90B
0B090C05F3EDDE1BF303
0F00040BFCEDD81FF900
11F9070BFFF6D30E0203
0EEF020CFDFADB110702
08E9FE0FFF04E30A09FE
01ECF70A0210EE090AF8
07E7FC0DFC15E5060CF3
12E8F9F2FE28EDF711EE
08F3F0F0F143EFF905F3
F2F9FAFDF537F3FE04F9
FCFFFFFFFE0BFC0004FE
0000000000000001FF00
00000000000000000000
000000000000000200FF
010000FFFF00FF07FFFC
FFFF030AFAFCFF0CFDF7
00FEFE07F8F7FD1109F4
FFF80A03F8F7F50E0301
FEF209FAF3FEF4060B0B
FBF2F4F8FC0800051006
FDF8F4E7020C00FE0F0E
FEECF3DE0517FC041508
FEF1F8DC050FFC050F11
04FAF1DA0418FF010E0A
05FBF1E10616F8060808
050DE8FEF00DFE0D02F8
0124F410D000F01BF5F9
F229FA10EEF8E41EE9F7
F712FF15FCF0DE25ECFC
0A04040F07EADA1EF200
10F7FF0DFAEAE31A0304
08F0FF0C05E7E51C0701
10EAFA11F9F4EB120503
07EBFC09F901EE1307FD
12EBFD00F601F30A0BFD
19EFF4F8E225F6F80CFA
0FF4F6F6E83EF3F7FDF2
F2FCFEFFF63FF0FEF4F8
FBFF0100FC12FB00FEFE
000000000000FF000100
00000000000000000000
00000000FFFF000500FD
00000000FCFF000DFFF9
00FFFF09FCF8FE0DFFFB
FAFFFA05F5FF001501FC
FAFAF7F9FC01000A0809
FDF3EEEB0412F9060C0D
04F2E8E10408050C110A
01F4E7E0080F00FB1016
F9EAE2DE110F04081211
FBF0D5E6140F01090D13
FCF0D6EF101201040912
FAF1D0F6171D060109FC
FE12D107E32102FF0EF3
E62EDE0DD506EE0D10F8
DD2AE50E00F6DD17FB03
DE12F10616EFEE1FF60A
F3F9F50C0AF0E91BF715
FEF9FC09FFEEED18FB10
04F0060BFCE6F20D0012
0BEFFF08FAD9FA0E0319
10F5FBF7F8DFFD0D0A15
0EF601F9F4DDFC0F1707
18FAF9F4EDF90AFB16F7
0DFBF9F9F112FEF910F6
FAFC0100F91EF2FE05FB
FDFF0000FF08FA0006FF
00000000000000000000
00000000000000000000
00000000FF00000300FF
00000000FBFF000E00F9
0000FD01F7FEFE1801F7
F900F5FAF404FD150209
FDFDE8F2F804FF0E0817
06FCD5E60A1105010614
FFF8CFE60F080B0D0D0E
FEF3D8E31809080C060C
00F4D5F114070904050F
FFEADBFD1E1602F7FB06
01E2D5F7221A0CF4FF05
02F2D80421190DDF09F3
FB10D906F61705D31A02
DD3FDC10E400EAEE090F
D027E40D04F7E90A020D
D30BEE091AE8F51BFB13
F0FBEE060FE7F8160116
FDFBF60303E7F713FE18
FFF1050104E3F301091B
02F500F8FDDDF707131B
09FAFAEA08D408031216
17FAFAEA00C713001411
15FEF0F3F9D121FC1506
17FE01FBF9DD10FC15F5
01FF0901FE01F70005FB
FFFF0600FE03F90201FE
00000000000000000000
00000000000000000000
00000000FF00000100FF
00000000FC00000A00FB
0000FAFFF700FF0F0200
FB02EDFAFA06FA10FA15
FFFED7F0090B0407FD18
0AFDCDED160710FDFC11
0CFACBE81A090805FB0F
06FCE4ED170506FBF90E
07EFE4F717070AF6FB09
0ADEEBF122120BF2F505
06D5F5FB26190BDA00FF
FEF5F303122007C412F5
E113F714FA10FEC71701
D137F70CF8FCF7E1020E
C724EE000BEAFEFC0E14
D900EE0612E6FF100122
EDFDF50617EAF60DF919
F3F0F4030CF5F70CFE18
FCF2FAFB06F9FD060113
FDF5F8E410F400070718
08FAF7EB09E90F00FD14
10F9F8E905E818FE0206
1AFAF7F3FAD9240208F8
0FFB0AFBF7E5150304F3
05FD140001F9F8FF01F8
00FF0C0001FFF9FFFFFE
00000300FF00FF000000
00000000000000000000
00000000FF00000100FF
00000000FF00000300FE
FE01FA01FD00FF07FF04
FD00EFF90F05F702FB11
09FEE6F216FF0604F607
0AFDE8EE16FC0AFDF20E
10FAF6E6190008FBE809
0BF9F7F4180307F3EB06
0BF0FCF3180E0EEAEC02
03DBF9F3191611E8F902
04DB04F51B101AD30500
FBFC0408110A0CC313F9
E11D0805F707FAD21702
CE310006FEFCFBEF06FD
D21FF90409ED06F8090C
D101F8F820EE0907FF18
EFEBF20420EFF211FB16
F5E5FA0314F2F817F711
F7EBFCFC12F6FD1DF706
FEF200F60CFE0214ED04
0CF7F80004F50A08F101
10FAF5EF03FB180CEDFA
14FC02F8FAF5160CEEEE
18FE09FCFBF50BFFF6F0
01FE15FFFCFAFCFF00FC
00000BFFFD00FB00FF00
00000000000000000000
00000000000000000000
0000FF01000000000000
0000FF010000000100FF
FD0000000300FD03FE01
0500000607FCF100FA06
11FD00FE0AF500FCEF04
04F707F60FFB07FFE705
13F9FEED14F70CF6E907
11FAFEEA1AFF0AEAEF05
13EEFEEB13050EE7F903
10E006F3110A14E3FBFD
04EC01F7130A1BD70202
F20402070D040FD411FB
D5240A05F9F603E418F8
CC32030206EE07ED0CF6
CE0E000019EB04010709
DCF700FA24EEFD02FE17
EFDDFCFF20F1FA1AF50F
FCE6F5FE0F02F620F308
FDE9FD0711FC0116EEFD
07F0EF0AFFF80818F201
04F6F607FFFB0D18ECF7
0DF8F60906FB0312F1EE
18FAF809F9010C07F0E9
11FC18FFEBFD0903F1F0
01FF1AFEF7FC01FBFFFA
FF000CFF01FFFAFFFFFE
00000100000000000000
00000000000000000000
00000000000000000000
0000FF0300FF000000FF
FC000D05F900FB00FFFF
01FF0F0BF900F002F702
11FB100404F6FCF7E902
0BF311F40EF207FBF3FD
0DF309EF17E30FFBFBFF
11F0FDE51AE811F2010A
0EF207F50EEB13F200FF
10F00BED0AF11BE00205
05F50CF701F921DC0603
E5FF17FC04FC03E816FD
D121140405F3FFF20AF1
D5290AF716EC09F4FFF6
D80103F221F2080B0203
E7ED05F620F4FA0AFB11
FAD60AFF15FAF812F40A
02E1FF0A12FD0109EE03
02E9FA1105030815E6F7
09EFFD0E05FD070EE8F6
0FF60C0AFEFD070DE6E7
0AF50C0FF708FD03EDEF
0FF70911F70501FAF8E8
00FC1807F70506FBF2F1
FBFE26FBFAFCFBFEF9FB
FEFF12FFFCFEFA00FEFF
FF00040000FFFE000000
00000000000000000000
00000000000000000000
FF00020200FF000000FE
FD000E10F6FEFBFEFEFB
FEFE1316F800EF01F8F6
0EF31504F70AFAF9F3F6
11E80FFAFE0E00F9F3F5
09EC0AF909F30DED03FF
09EE09EE13E90CEC0808
11F809DC0AE614EE1500
11FB14DB02E91FE20904
00FD12E1F9EC1FED1007
EB0918EC06DF09F518FD
D11E14E910E6040408F8
D71FFFE91DF00709FDFC
EAFC08EF1CFBFD06F60C
F7E701FE19FEF8020305
FFDD010B0E050204F700
02E50308070B0A03EFF7
07EF0111FD0309FEF5F3
03F1030BFE060503F2F8
00F70211010301FFF5F6
0BF80C0FF60106F9F5ED
05FA0B14F20601FCFAEA
03FA1CF6F30AFE04FCF1
FFFB2DF9F8FAFB00F4FC
FF000C00FDFFFD00FEFF
00000000000000000000
00000000000000000000
00000000000000000000
0000FF03FF00000000FF
FB000515F900FDFFFBFA
00FC1612FA08EFFDF3F6
08F31B0DF910ECF6F4F0
0CE40F09F81AF7ECF8F4
0BE412F602060BEA00F8
11F60AF000FC0CE908F9
11FA0AE4FCEE14EF0FFE
16F612DEF3ED18E51002
01FF10E0F6ED19F113FF
EA0C16DE05F321F30BEF
DA1015E40AF90A0503F7
DE140AE815FE0106F701
EFF702FF0FFE0501FC05
FDEB0E0C0A0308F6F4FD
01F00D10F9060DF9F6F5
FEFB060CF2FE11F8FCFD
01F50A10F20703F7FCF6
FAFB080AFE0601F8FFF8
02FE0513FC0305F5F6F1
07F70B17ED0B01F3FEE7
04F91C07F10701F2FEEC
FCFB2FF6F10AFDF5FAF4
FEFF1FFCF7FD00FEF8FE
FF010400FF00FE00FF00
FF0003000000FE000000
00000000000000000000
00000000000000000000
0000FF0400FF0000FFFF
FCFFFE1C00FFFDFDF8F9
FAFB1511F70FF3FDF2F5
07EA0C15F913EBF201F3
0DF00D08F114F8E902F4
06F11401EF0F05E702F5
0EF50F01E91000EC06EF
0D010EFBE30A0EE909EB
17F90FEFE0FF1BEA0CED
0D0213E8EE0125EDFCEA
07020BEAEA0923FEFCE8
F50C14ECFB080EFEF4F4
F4040AF803000E0AF2F6
F7FE0801010712FBF8F5
FA03040CFD0514F1F8F4
00FC0C13F6FF0CEFFDF5
FF010113F6070CEB02F1
FAFF020FF00209F202FF
07FC0907F10707EB00FB
05FC0B14F50508E7FDEF
04F81809E90502EE06F0
01F71404EF06FBF10BFB
000113FAFA07FCFEFCF9
FF0116FDFD01F9FFF9FE
FF00070000FFFD00FEFF
00000100000000000000
00000000000000000000
01000000000000000000
0000000200FF000000FF
FAFF0315FF01FEFDF8FC
00FD0D1CF9FFF6F7F6F9
0AEF1112F00FEEF3FCFA
0DFB0B11F00FEEED03EF
05FE190AE802FFE60DE9
0C04120ADA10FEEC03EA
0A051107E40F09E700E2
170510FCE20716EB05D9
14050FF6F10917F3F7DE
10010AF0EB041D00FCE4
08FF02F6EE011902FEF3
000202FFFAFF1C04F1F1
FCFD030400FD15F8FEF4
FA080307000311EDF8F7
FA0D0210000507ECFBF3
FD090C0AF8080DE0FEF3
F9050A0FF50409EDFDF7
FA020C10F90206E106F5
05FD1105F40AFDE20DED
01F912FCF418F7EB07F6
FDFE14FCF40EFBF604F9
FBFD1DFCFA06F9FFF5FF
FE0109FFFD02FEFFFC02
0001020000000000FFFF
00000000000000000000
00000000000000000000
00000000000000000000
FFFF0203000000FFFFFF
FD00080DFD01FFFCF9FC
FB050B11FA07F9F7F5FB
080A0810F700F1F1FDF8
05080B0DEB09EBEF05F9
07060B0FE609F7EA0AEC
020B0C0AEB0CFDF002EB
0A040FFAEE11FDEF05EF
0D060BFFEA070FF6FCEE
16FA0CF9F10612F701E5
0EF305F3F5091FFDFFEB
07FAFEFEF00422F803ED
04FFFFFBF50022F900F2
0403FE00000714F6FCEF
FF060108F8030FF8FAF7
F4070C06000711F0FAEF
FE0C0D0DF90208E9FEF0
F107140DFB0402E803F1
F8050B03FF0BFEE606F7
FC0111FFFF0FF9E202FE
FCF712FAF913FEED08F9
FDF91EF7FD0CFDF6F9FD
FD0110FBFC03FFFDF903
FF0007FFFD03FEFFFD01
00000000000000000000
00000000000000000000
00000000000000000000
00000000000000000000
00FF0104000000FEFFFF
FE00050BFEFFFFFCFCFE
F606070CFD09FEFAF5FD
FA1C0609FBFBF701F4F6
07180E0AF6F7F0FAFAF4
04090A09F300EB010CEB
0B0611FEF208F3FCFEF5
0E050E08EF03F7F8FBF8
0DFE0500F508FDF604FB
0DF20606F709FEF107F9
0DE6FFFFF50E0CF70BF7
15E8F9FEF90D07F511F4
0800F7FAF60E06FB0AF5
0202FB02FA0605FA09F3
0606FD05F80B01F501F6
FD1303070104FEF3FFF3
F70D0D06FF0AFCED03F1
FD05120B0C01F8EFFEEF
F70314FF020BFCE700FD
FBFC0EFB0C07FBE807FD
00F911FEFB08FAF5FD06
01FC0AFCFD04FBF80008
FFFF08FCFC05FEFEFE04
000003FFFE03FFFFFF00
00000000000000000000
00000000000000000000
00000000000000000000
00000000000000000000
00000001000000FF0000
00FFFE09000000FBFF00
FA01FE0EFE05FF01FAFB
F80DFF10FC06FE06EDF9
FC12FD14FDFCFA0DEAF6
000AFC10F7FFF311F4F7
04010709F702EFF80302
06FE0509FB08ECFF06F1
12F50107F80EE4FF02FC
11F70409FD0BEAFB06F4
17F9FF01F60CECF70FF9
10F5F900F90AEEF718F9
12F8F1FFFA0CF9FD10F7
0B07F6FFFC08FB040DEC
0408FBF9080AEEFC15ED
010DFB020402F4FC07F9
F40008090D00F8F504FA
F0010D030E01FBED0AFA
F1FC0FFF0D07FDEA07FE
FAF80EFA0BFEFDEE020E
FCFC0DFAFC01FCF40010
FEFC08FCFE04FEF70307
FF0006FEFC05FFFDFD04
000003FF000200FFFFFF
00000000000000000000
00000000000000000000
00000000000000000000
00000000000000000000
00000001000000FF0000
00FEFC0700000001FE00
FFFEFC0BFFFF0004F901
FEFFF70DFEFFFF12F001
FE02F115FC00FF10EA04
F7F8EF1CFC03FC15ED04
F9F7EE0DFF04F912FC06
FCF6F50FFD0EF505FE01
03EFED11FF07F30B0104
FEEBEB15FD12ED050AFD
05EDFB0AF810EC060EF8
05E8FC12F612E90F07F4
03F0FD0CF911EF040DF3
F9F6FA05F811F1050CFD
F8ECFB0BFF03F60512FE
F6FB0205F90DF903FD06
EFFF02F80303F7F8120A
F203F9FC0400FBFA100B
F5FFFEF904FFFCF80316
F7FF04000000FDF6FE12
FDFE00FE0106FEF7FC0E
FF00FEFFFF06FFF8FF09
000004FFFF0200FDFFFF
00000400000000FEFFFF
00000000000000000000
00000000000000000000
00000000000000000000
00000000000000000000
00000000000000000000
00000000000100000000
00FFFE0000010006FC01
00FDFB05FDFF0007F60A
FDFCFC0DFB000006F609
F9F8F80CF600000EF810
F8F8F11BEE01FF17F00B
F0F3EF1BF007FE19EF0E
EBEBF21DF709FE0FF90B
EDEEF11BEE09FD18F60B
EAF1F41EE612FD18F109
EDEBF815ED0CFB14F80E
EBF1FB11EE07FB15FD0C
EEECFD05EA0CFB1A050A
F3F1FD03E80CFC0D0512
F2F7FC01E610FD0F0311
F5FDF5FDEA08FE120015
FAFEF402ED07FF03FE1C
F9FFFAFEF304FFFCFF1C
FB00FBFDF70700FFFD15
FE00FCFFFC080000FE05
FF00FE00FD0600FE0003
0000FF00FF0300000000
00000000000000000000
00000000000000000000
00000000000000000000
00000000000000000000
00000000000000000000
00000000000000000000
00000000000000000000
00000000FF0000FFFF03
00000000FFFF00FDFE07
FF000002FDFF00FDFD08
FE00FF03FBFD0002FE08
FEFFFF01F7FC0006FD0C
FBFFFF01F100000CFB0D
FDFDFF00EFFF000DF913
FDFEFEFEEB03000FF911
FDFDFFFEEB060009F716
FBF9FDFFE703FF16F717
FAFCFEFCE4FEFF1AF61C
FCFEFEFDE904001BF50C
FDFDFD01EB010013F712
FDFFFC00EA000017FA0C
FEFEFD00EEFFFF0DFB12
FF00FF00F2FF0006FC0F
FE00FFFEFA020000FE0A
FF00FF00FD0100FFFF07
FF000000FE0100030000
00000000000000000000
00000000000000000000
00000000000000000000
00000000000000000000
00000000000000000000
00000000000000000000
00000000000000000000
00000000000000000000
00000000000000000000
00000000000000000000
00000000000000000000
00000000000000000000
00000000FF0000000001
00000000FF0000010001
00000000FF0000010000
00000000FE000003FF01
00000000FE0100000002
00000000FE000003FF00
00000000FF00000600FC
00000000FC000007FF00
00000000FE000006FFFE
000000FFFF00000500FD
00000000FF00000700FB
00FF0000FF000007FFFD
00000000FF00000200FF
00000000000000010000
00000000000000FF0001
FF00FF00000000010001
00000000000000000000
00000000000000000000
00000000000000000000
00000000000000000000
00000000000000000000
