-- begin_signature
-- weights
-- end_signature
WIDTH=80;
DEPTH=784;

ADDRESS_RADIX=UNS;
DATA_RADIX=BIN;

CONTENT BEGIN
	783 :	00000000000000000000000000000000000000000000000000000000000000000000000000000000;
	782 :	00000000000000000000000000000000000000000000000000000000000000000000000000000000;
	781 :	00000000000000000000000000000000000000000000000000000000000000000000000000000000;
	780 :	00000000000000000000000000000000000000000000000000000000000000000000000000000000;
	779 :	00000000000000000000000000000000000000000000000000000000000000000000000000000000;
	778 :	11111111000000001111111100000000000000000000000000000000000000010000000000000001;
	777 :	00000000000000000000000000000000000000000000000000000000111111110000000000000001;
	776 :	00000000000000000000000000000000000000000000000000000000000000010000000000000000;
	775 :	00000000000000000000000000000000111111110000000000000000000000100000000011111111;
	774 :	00000000111111110000000000000000111111110000000000000000000001111111111111111101;
	773 :	00000000000000000000000000000000111111110000000000000000000001110000000011111011;
	772 :	00000000000000000000000011111111111111110000000000000000000001010000000011111101;
	771 :	00000000000000000000000000000000111111100000000000000000000001101111111111111110;
	770 :	00000000000000000000000000000000111111000000000000000000000001111111111100000000;
	769 :	00000000000000000000000000000000111111110000000000000000000001100000000011111100;
	768 :	00000000000000000000000000000000111111100000000000000000000000111111111100000000;
	767 :	00000000000000000000000000000000111111100000000100000000000000000000000000000010;
	766 :	00000000000000000000000000000000111111100000000000000000000000111111111100000001;
	765 :	00000000000000000000000000000000111111110000000000000000000000010000000000000000;
	764 :	00000000000000000000000000000000111111110000000000000000000000010000000000000001;
	763 :	00000000000000000000000000000000111111110000000000000000000000000000000000000001;
	762 :	00000000000000000000000000000000000000000000000000000000000000000000000000000000;
	761 :	00000000000000000000000000000000000000000000000000000000000000000000000000000000;
	760 :	00000000000000000000000000000000000000000000000000000000000000000000000000000000;
	759 :	00000000000000000000000000000000000000000000000000000000000000000000000000000000;
	758 :	00000000000000000000000000000000000000000000000000000000000000000000000000000000;
	757 :	00000000000000000000000000000000000000000000000000000000000000000000000000000000;
	756 :	00000000000000000000000000000000000000000000000000000000000000000000000000000000;
	755 :	00000000000000000000000000000000000000000000000000000000000000000000000000000000;
	754 :	00000000000000000000000000000000000000000000000000000000000000000000000000000000;
	753 :	00000000000000000000000000000000000000000000000000000000000000000000000000000000;
	752 :	00000000000000000000000000000000000000000000000000000000000000000000000000000000;
	751 :	00000000000000000000000000000000000000000000000000000000000000000000000000000000;
	750 :	11111111000000000000000000000000111111100000000100000000000000110000000000000000;
	749 :	11111111000000001111111100000000111111010000000100000000111111111111111100000111;
	748 :	11111110000000001111111111111110111110100000001000000000000000001111111000001010;
	747 :	11111111000000001111111100000000111100101111111100000000000001101111110000001111;
	746 :	11111110111111101111110100000000111011101111111111111111000011011111101100010010;
	745 :	11111101111111111111110000000000111010100000000000000000000101111111101000001100;
	744 :	11111101111111011111110100000001111010110000000100000000000100111111011100010010;
	743 :	11111100111111101111111011111101111010010000010000000000000110111111010100001100;
	742 :	11111010111111001111111011111100111001001111111011111111000110101111011000011100;
	741 :	11111011111110011111110111111111111001110000001111111111000101101111011100010111;
	740 :	11111101111111011111111111111110111010110000011000000000000010011111011100010110;
	739 :	11111101111111101111111011111110111010110000001100000000000011111111100100010001;
	738 :	11111101111111011111111100000000111011111111111100000000000011011111100100010011;
	737 :	11111011111111111111111100000001111100010000000000000000000011001111101100001101;
	736 :	11111110111111111111111100000001111101111111110000000000000001101111110100001100;
	735 :	11111110000000001111111100000011111110111111110100000000000000101111111000001000;
	734 :	11111111000000000000000000000010111111011111111100000000111111011111110100001000;
	733 :	00000000000000000000000000000000111111111111111100000000111111011111111000000111;
	732 :	00000000000000000000000000000000111111110000000000000000111111111111111100000011;
	731 :	00000000000000000000000000000000000000000000000000000000000000000000000000000000;
	730 :	00000000000000000000000000000000000000000000000000000000000000000000000000000000;
	729 :	00000000000000000000000000000000000000000000000000000000000000000000000000000000;
	728 :	00000000000000000000000000000000000000000000000000000000000000000000000000000000;
	727 :	00000000000000000000000000000000000000000000000000000000000000000000000000000000;
	726 :	00000000000000000000000000000000000000000000000000000000000000000000000000000000;
	725 :	00000000000000000000000000000000000000000000000000000000000000000000000000000000;
	724 :	00000000000000001111111100000000111111110000001100000000000000000000000000000000;
	723 :	11111111000000001111111000000000111111010000011000000000111111100000000000000011;
	722 :	11111110000000001111110011111111111111000000100000000000000000001111111000000101;
	721 :	11111011000000001111101111111101111101110000011100000000111111111111110100010101;
	720 :	11111001111111111111101011111110111100110000010011111111111111001111111100011100;
	719 :	11111010111111101111010000000010111011010000011111111111000000111111111000011100;
	718 :	11110101111111011111010111111101111010100000100011111110000100100000000000010101;
	717 :	11110010111101111111110000000001111001100001000011111101000011110000001100010001;
	716 :	11110011111100011111110100000011111010000000110011111100000011010000010100010010;
	715 :	11101110111011001111110100000101111010100000110011111011000110100000010100001010;
	714 :	11101011111100011111101100010001111011100000011111111011000101011111110100001100;
	713 :	11101101111010111111100000010101111011010000110011111011000101001111100000001110;
	712 :	11101010111100011111010000011110111001100001001011111101000110001111000100001001;
	711 :	11101101111011101111000100011011111011100000100111111101000110001111011000001011;
	710 :	11101011111010111111001000011101111101110000100111111110000011111111100100001011;
	709 :	11110000111100111110111100011011111100000000011111111110000110011110111100001110;
	708 :	11111000111110001111000100011011111011100000000111111111000101111111000000001011;
	707 :	11111001111110001111100000001100111101100000000000000000000011101111100000010000;
	706 :	11111101111111001111110000001101111110110000000000000000000001101111011000001001;
	705 :	00000000111111011111101100000101111111011111111100000000000001111111011000001010;
	704 :	00000000111111111111111000000000000000000000000100000000000001101111110000000001;
	703 :	00000000000000000000000000000000000000000000000100000000000000000000000000000000;
	702 :	00000000000000000000000000000000000000000000000000000000000000000000000000000000;
	701 :	00000000000000000000000000000000000000000000000000000000000000000000000000000000;
	700 :	00000000000000000000000000000000000000000000000000000000000000000000000000000000;
	699 :	00000000000000000000000000000000000000000000000000000000000000000000000000000000;
	698 :	00000000000000000000000000000000000000000000000000000000000000000000000000000000;
	697 :	00000000000000000000010000000000000000000000000000000000111111101111111111111111;
	696 :	00000000000000000000010011111111111111110000001000000000111111011111111111111111;
	695 :	11111111000000001111111011111111111111110000011011111111111110001111111100001001;
	694 :	11111101111111100000000011111110000000010000011011111110111101111111110000001110;
	693 :	11110111111111110000010000000000000000000000000011111101111101101111111000010010;
	692 :	11110101111111111111111011111001000001001111111111111100111110000000001100010110;
	691 :	11110010000000111111100111111100000001000000000011111011111110100001000000001011;
	690 :	11101111111111110000001011111000000000110000001111110111111110000001001000001010;
	689 :	11110110111110110000001000000101111110010000110111111001000000111111110100000110;
	688 :	11111000111011001111101100001011111111110000001111110110000001010001001011111110;
	687 :	11111001111101101111101000000101111110000001000111110001000001010000110011111101;
	686 :	00000011111100001111110100001100111110010001000111101111000001000000110111110011;
	685 :	00000101111010001111110000010010111101100001001011101001000011110000011111110100;
	684 :	00000101111011011111101100001010111110000001000011101100000001100000111011111000;
	683 :	11111110111010111110101100010101111111010001001011101101000001010000101011111101;
	682 :	00000011111011111110110100010001111111110000011111110011000010110000000100000100;
	681 :	11111100111101101111010100001111111111010000111011110101000001011111111000000001;
	680 :	11111001111101111110111000001101111111110000010011111001000100101111110000000110;
	679 :	11110111111110001110111100011100111111000000001111111100000101011110110100000100;
	678 :	11111110000000101111000100010101111111000000000011111111000100001110101000000100;
	677 :	11111110111111111111011100001101111111101111111111111111000100101111000000000001;
	676 :	11111111111111101111110000001011111111111111111100000000000001001111100100000001;
	675 :	00000000111111101111110000000111000000000000000000000000000000011111111000000000;
	674 :	00000000000000000000000000000001000000000000000000000000111111110000000000000000;
	673 :	00000000000000000000000000000000000000000000000000000000000000000000000000000000;
	672 :	00000000000000000000000000000000000000000000000000000000000000000000000000000000;
	671 :	00000000000000000000000000000000000000000000000000000000000000000000000000000000;
	670 :	00000000000000000000000000000000000000000000000000000000000000000000000000000000;
	669 :	00000000000000000000001111111111000000000000001000000000111111111111111111111111;
	668 :	11111111000000000000011011111110111111000000010111111111111111011111110100000100;
	667 :	11111110111111000000100011111100111111100000010011111110111101110000001100000111;
	666 :	11111100111111000000110111111010111111000000000111111100111101000000000000010000;
	665 :	11111010111110000000111011111010000010111111111011111101111011100000001000001110;
	664 :	11110001111111000000111111111111000011010000011111111101111010100000011111111110;
	663 :	11110000000000010000110100000011000011100000000111111011111011010000101011111010;
	662 :	11110100000000000000100000001001000011010000000011111000111101010000010011111010;
	661 :	00000001000011011111101100000010000001000000001011110100111111000000011111111001;
	660 :	00000100000010001111101111111001000010000000101011101110111111000001010111101101;
	659 :	00001011000001111111011011111111111111000000100011111011000001000000110111101100;
	658 :	00010010111110001111000111111111111110100000110011111001111111010001000011110111;
	657 :	00010000111101011111100100000000111110010000101011101110111101110001100011111001;
	656 :	00010111111110011111111100000001111101100000110011101100111101110000111111111001;
	655 :	00010001111101110000010000001001111111010000101111101010111110110000011011110100;
	654 :	00010010111101010000000100000111111110000000111011100100111111110000001011111100;
	653 :	00000110111111100000010100001001111110110000100011101100111111110000011011110001;
	652 :	00000100000000010000011100001001111101110000001011101111111110000000001100000010;
	651 :	00000000000010101111110000010000111101111111111111110011000100011111010011110111;
	650 :	11111100000100101111110100010100111111011111110011111010000011011110101011110110;
	649 :	11111000000011011111111100010000111111000000011011111110000001101110110111111001;
	648 :	11111010000000011111111000001110111111100000010111111111000000011111101011111011;
	647 :	00000000111111111111111000001001000000000000000000000000111110111111111100000000;
	646 :	00000000000000000000000000000001000000000000000000000000111111110000000000000000;
	645 :	00000000000000000000000000000000000000000000000000000000000000000000000000000000;
	644 :	00000000000000000000000000000000000000000000000000000000000000000000000000000000;
	643 :	00000000000000000000000000000000000000000000000000000000000000000000000000000000;
	642 :	00000000000000000000000000000000000000000000000000000000000000000000000000000000;
	641 :	00000000000000000000001111111111111111100000001111111111111111111111111100000000;
	640 :	11111111111111110000100011111100111111000000010111111110111111101111111000000100;
	639 :	00000001111111000000101011111100111111010000010011111011111110000000000000001000;
	638 :	00000000111110010001000111111110111110110000100011111010111101011111110100000110;
	637 :	11111011111111000000111011111011000011000000011111111011111010000000011111111101;
	636 :	11110111000000110001010011111111000000100000101111111100111001110000000011111101;
	635 :	11111101000001010001001000001011000011000000000111111000111011111111111011101111;
	634 :	11110111000011010000110100000110111111110000101011111100111011010000001111110001;
	633 :	11111101000100110000001100000111000000010000010011111110111100111111111111110011;
	632 :	00000110000001101111110100000101111110000000101100000001111101010000000111110110;
	631 :	00000010000000101111101100000010111110100000011000000101111110100000100111110011;
	630 :	00001000000000001111011111111010111101100000111000000110111110110000101011110101;
	629 :	00010101111010001111100111111110111110010000110100000111111101010001000111110100;
	628 :	00001101111001101111111111111111111101010000111000001100111101110000101111110111;
	627 :	00001101111100100000011000000110111101110000100111111110111100010000011111111001;
	626 :	00001101111111100000010100000000111101010000100011111101111101100000010011111011;
	625 :	00001110000001010000111000001000111011110000001111110111111110001111101111111000;
	624 :	00001011000001100001000111111110111100100000100011110011111111001111111011110101;
	623 :	00000100000010010000101000001001111100110000000011101011000000010000110011101011;
	622 :	00000111000110000000111000001010111101101111011111110000111110101111101011110100;
	621 :	11111010000111000000011000001001111110111111101111110111000000011111010011110110;
	620 :	11110110000001100000011100001100111111010000100111111110111110101111010111111101;
	619 :	11111110000000000000010100001011111111101111111111111111111111001111110011111110;
	618 :	00000000111111110000000100000100000000000000000000000000111111101111111111111111;
	617 :	00000000000000000000000000000000000000000000000000000000000000000000000000000000;
	616 :	00000000000000000000000000000000000000000000000000000000000000000000000000000000;
	615 :	00000000000000000000000000000000000000000000000000000000000000000000000000000000;
	614 :	00000000000000000000000000000000000000000000000000000000000000000000000000000000;
	613 :	11111111000000000000011111111111111111010000001111111110111111111111110100000001;
	612 :	11111101000000010001000011111011111111000000001111111111111111011111100100000011;
	611 :	11111101111110010001111011110111111111010000110011111101111101101111100111111101;
	610 :	11111100111101110001001011111010111110010001001111111110111011010000100011111001;
	609 :	11111100000000010001000111111111111111110000111111111001111000100000001011111110;
	608 :	11111000000001010000101100000011111111110000101111111110111001100000011011110111;
	607 :	11110001000001110001010000001101111110110000010000000010111010000000001111110001;
	606 :	11111110000011000000110100001101111110010000001000001000111010011111111011110000;
	605 :	11110100000001110000110000000110000000000000011100010001111100001111101011101111;
	604 :	11111111000001100000000100001000111110000000001100001111111110001111101011110111;
	603 :	00000100000000111111111000000000000000000000011100010100111101101111110011101111;
	602 :	00000100111111111111111111111011111101010000000000100010111110010000000011110010;
	601 :	00000111111110101111111011111110111100000000010000100010111110000000001111101101;
	600 :	00001110111100110000010111110011111101010000100100011111111111011111111111101011;
	599 :	00010110111110100000110011111001111100010000011000010010111101110000000111100101;
	598 :	00001101000001100000101111111111111010100000011100001111111101101111110011101110;
	597 :	00001010000001000000111111111010111011100001000111111101111011110000010111101111;
	596 :	00000010000010110000110000001010111010110000110011111101111100000000001011101011;
	595 :	00000111000001100000101100001111111001100000100111110111111010100000101011101100;
	594 :	00000101000010000000101100001101111010110000100111101011111011110000010111111001;
	593 :	00001000000010100000100000010000111101110000000011110001111100011111110111111000;
	592 :	11111011000001010000101100010001111110100000011111111001111101111111010111111011;
	591 :	11111101000000000000100000001101111111010000000111111111111111001111100111111100;
	590 :	11111111111111110000001000000011000000000000000000000000111111111111111111111111;
	589 :	00000000000000000000000000000000000000000000000000000000000000000000000000000000;
	588 :	00000000000000000000000000000000000000000000000000000000000000000000000000000000;
	587 :	00000000000000000000000000000000000000000000000000000000000000000000000000000000;
	586 :	00000000000000010000001000000000000000000000000000000000000000001111111111111111;
	585 :	11111110000000010000100111111111111111010000001011111110111111111111110000000010;
	584 :	11111011111111010001110111111100111110100000011011111001111111111111010111111111;
	583 :	11111101111111100001010011111100111101000000111011111011111101100000010011111001;
	582 :	00000001111110010001001011111100111101000001100011110111111010110000011111110110;
	581 :	00000101111111010001000100000101111101000000101011111101111000100000110111101101;
	580 :	11111010000000100000110000010000111110010000001000000110111000010000011011110101;
	579 :	11111001000001010000101000001111111101010000010000001001111011011111110111110111;
	578 :	11111101000010010000110000001010111110000000100000001101111000001111111011110011;
	577 :	11111010000011010000001000010000000000000000010100000111111011001111101111110011;
	576 :	11111010000010000000001100000111000000000000001100010001111011011111100011110111;
	575 :	11111100111111010000001100000100000000001111110100010101111110001111111011110100;
	574 :	00000000000000100000001011111111111110101111111100011100000001001111000111110001;
	573 :	00001000111111110000001011110110111011100000000100011001000000101111111011110011;
	572 :	00010000000000010000101011110000111010110000010000011101000000001111110011100100;
	571 :	00010100000001010000111111110110111100010000100100010111111100111111011111011110;
	570 :	00010111000001010001000011111100111000100000011100010110111010110000010111011001;
	569 :	00001010000001010001000100000111111001000000111100001001111001110000000011100010;
	568 :	00001100000001000001001000001010110110100001000011111110111011000000001111101010;
	567 :	00000101111111100001100100001010111010000000001011111111111001100000110111101001;
	566 :	00001101111110110000101100010001111100000000111111101110111011010000001111101111;
	565 :	00001010111011110001000100010010111100000000111111101110111100111111110011111010;
	564 :	00000000111111010000110100011100111110011111111111110110111101111111011011111001;
	563 :	11111010111111110000001100010101111111110000000111111110111111011111100011111100;
	562 :	00000000000000000000000000000010000000001111111100000000000000000000000011111111;
	561 :	00000001000000000000000000000000000000000000000000000000000000000000000000000000;
	560 :	00000000000000000000000000000000000000000000000000000000000000000000000000000000;
	559 :	00000000000000000000000100000000000000000000000000000000000000000000000000000000;
	558 :	11111111000000000000011100000000000000001111111111111101000000001111111011111111;
	557 :	11111111000000010001011011111101111111010000000111111001111111111111100111111110;
	556 :	00000000000000010001001111111010111110100000011111111100111111101111110011111001;
	555 :	00000001111101110001010000000100111011110000011011111011111100010000101111111011;
	554 :	00000100111110000001100000001001111010010000010100000010111011100000011011110000;
	553 :	00000101111111000000101100010100111101010000010100001000111001111111110111101111;
	552 :	00000111111111000000100100000111111100010000011100000111111010110000000011111011;
	551 :	11111010111111110000001000001111111100000000001000001001111100100000001011111111;
	550 :	11111111000000010000000100010011111101100000011100001100111010110000001011110001;
	549 :	00000000111111000000110000010011111101101111111100001100111011111111110111110101;
	548 :	11111010000000110000010000001100111111010000010100010100111100011111100011110100;
	547 :	11110111111111100000100000000001000000010000011100010010111110111111100011110101;
	546 :	11110100000001000000101011111000000000110000000000001110000010101111001011110110;
	545 :	11110101000011000001010011101100111110110000100000001110111111101111010011110100;
	544 :	00000111000000100000101111101010111010100000100100100011111111101111110011101000;
	543 :	00001101000000100001001111101000111011100000000100100101111011011111110011101010;
	542 :	00010111111110010000111111101111111000001111111100011011111010100000110011101101;
	541 :	00001101000000010000111011111011111000110000101000001110111010010000100111101011;
	540 :	00001110111101010000111100000001111010010001000000000000111011000000011011101111;
	539 :	00000110111100010001010000000001111011110000111100000101111001110000001011110101;
	538 :	00001101111100000000110100001000111100010001010011111000111010010000001011110100;
	537 :	00000111111010100000110000010101111110010001001111101011111100100000000111110011;
	536 :	11111010111110110001010100010001111101110000111111110011111111011111001011110101;
	535 :	11111100111111111111111000011100000000001111111111111101111111011111100011111001;
	534 :	00000000000000001111111100000100000000001111111100000000000000001111111111111111;
	533 :	00000000000000000000000000000000000000000000000000000000000000000000000000000000;
	532 :	00000000000000000000000000000000000000000000000000000000000000000000000000000000;
	531 :	11111111000000000000001100000000000000000000000011111110000000000000000000000000;
	530 :	11111111000000010000010000000000111111110000000011111110000000001111111100000000;
	529 :	11111110111111110001111111111100111101111111110100000000111111101111100011111110;
	528 :	11111100111110110010111111110110111100010000101011111101111101011111101011110100;
	527 :	00000100111110010001110000000111111100010000011100000001111100101111111011101100;
	526 :	00000111111101110000101100010111111011010000101100000001111100111111111011100111;
	525 :	00000010111111100000010100010011111111000000001100000101111101011111011011110001;
	524 :	11111010111110110000100000001010111111100000011000000001111110001111111111111000;
	523 :	00000001111101010000101000010000111100100000011100000011111101111111110011110110;
	522 :	11111110111110110000011000001100111100101111111000010001111110001111110011111101;
	521 :	00000001111100000000110100010000111110010000011000001101111110011111011011110101;
	520 :	11111101111010110000111000001100000010100000001100001000111101101111010011111101;
	519 :	11101111111101110000001011111111000011111111111000000101000000011111110000000101;
	518 :	11011110000101000000101011101000000101011111111000000001000001101111011100000001;
	517 :	11011010000100000001010111100100000010101111100100001010000001010000001111110111;
	516 :	11101010000011000001011011011110000001011111001100100001111100110000101111101111;
	515 :	00000001111111110001000011100000111101101110110100011001111100010001001111111111;
	514 :	00010110111101100001001011011110111100111110110100011000111001010001000000000010;
	513 :	00010001111110100000101011100100111111001110111000010100111011110000111111111110;
	512 :	00010001111101100000101011110000000000001111110000001100111010010000100011111001;
	511 :	00001011111001000001001011110110000000100000011000001011111010100000000011111000;
	510 :	00001100111001000000111100001001111110000001101011110111111011001111100011110100;
	509 :	00001000111100110001101100001101111110010001000011101100111101101111010011110000;
	508 :	00000000111111000001011000010010111110100000100011101111111111011111001111110110;
	507 :	11111011000000000000010100010101111110010000000011111101111111111111101111111010;
	506 :	00000000000000001111111100000011111111110000000000000000000000000000000011111111;
	505 :	00000000000000000000000000000000000000000000000000000000000000000000000000000000;
	504 :	00000000000000000000000000000000000000000000000000000000000000000000000000000000;
	503 :	00000000000000000000000000000000000000000000000000000000000000000000000000000000;
	502 :	11111111000000000000110000000000111111011111111111111101000000001111111011111111;
	501 :	11111111111110110010110111111001111110001111101011111011000000001111010011111100;
	500 :	00000011111110100001110011110110111100110000101011111110000001001111110011110001;
	499 :	00000101111110100000101100010100111100100000011000000001111111001111101011101010;
	498 :	00001011111110000000110000001111111101100000000100000110111110011111010111101101;
	497 :	00000000111101110000001000010001000000010000001100000001111111111111010111110110;
	496 :	00000011111100010000001100001011111111100000011000000101000000111111001011111000;
	495 :	00000111111011110000000100010001111111010000001100001001111111101111010111110011;
	494 :	00000010111001010000001100001000000001110000101100001010000000111110111111110111;
	493 :	11111111110111010000000100001011000011100000010100000010000001001111011100000000;
	492 :	11110111111001110000000111111110000110011111111011111000000000100000001100000101;
	491 :	11101010111111000000100011101111000111001111101111111101000001101111011000001100;
	490 :	11010111000111111111111111101001000111011111000000000111000010011111110111111100;
	489 :	11010001000111100001010011101001000100001110011000000100000001000000100011111000;
	488 :	11101011000010010001100011101100000001101101111100001001111101010001100011111101;
	487 :	00000000111111010001001011100001111110011110110000011111111011010001000000000111;
	486 :	00010001111110110001010011011011000000101110100100011111111000100000100100000100;
	485 :	00010001111110000000100111011100000010101110011000010100111011100001010100000000;
	484 :	00001001111011100000100111101110000100111110100100001100111011000000100000001000;
	483 :	00001001111011000000101011111001000010011111001100001101111011010000001111111111;
	482 :	00010001111010000000111111111010111111100000111000000000111110011111001111110101;
	481 :	00001110111100110001010100000100111101110000101011111010111110011111001111110110;
	480 :	11111110111111100001001100010110111110000000000011101111000000011111100011110110;
	479 :	11111101000000000000111000010000111101101111111011111011111111101111111011111011;
	478 :	11111111000000000000001000000010000000001111111100000000000000000000000011111110;
	477 :	00000000000000000000000000000000000000000000000000000000000000000000000000000000;
	476 :	00000000000000000000000000000000000000000000000000000000000000000000000000000000;
	475 :	11111111000000000000010000000000000000001111111111111110000000000000000000000000;
	474 :	11111110111111110001001011111111111111001111111011111010000000001111111011111111;
	473 :	11111011111111100010011011111011111110101111110011111011111111101111100111111011;
	472 :	00000000111111000001100000000111111101110000010100000110111110111111001011110001;
	471 :	00001111111101110000100100010001111101110000010100000001111110101111100011101000;
	470 :	00001010111101010000110000001111111101110000100011111101000000111110110111101111;
	469 :	00001111111101100000110000001010111111101111110100000111000011011110011011100111;
	468 :	00001001111011111111110100001110000001011111110100000111000011101110100011110110;
	467 :	00000010111010011111101000010001000001010000001100001000000101011110011011110111;
	466 :	00000010111000011111111100001010000100101111110100000001000010011110111000000011;
	465 :	11111010110101100000101011111111000101011111101011111000000100101111010000001010;
	464 :	11100111111011010000010111110110001000001111010011111010000010101111101100010001;
	463 :	11011000000000010000001111110010001000011111001000001000000010110000001000000011;
	462 :	11010101001010010000101011110111000101101110110000001001111101001111111111110110;
	461 :	11010001001000010001010000000100000001011111001111111111111100100000101011110001;
	460 :	11100101111111110001011111111100000001001111110000000011111010000001011011111101;
	459 :	00000101111101010000110011110111000000011111100100100001110111000000011000000011;
	458 :	00010000111100000000101111101101000010101111000100011011111000000000001000000101;
	457 :	00001110111100100000011111110101000011101110101100010011111100100000000011111111;
	456 :	00010001111100001111110111100101000110101110100000010001111100100000000100001010;
	455 :	00001101111100110000100111101111000101111110001100001111111110111111101111111111;
	454 :	00001011111100110001000111110100000011101111001000000111111110111111001111111101;
	453 :	00010001111110110001000000000100000001001111011011111100111101111110100100000010;
	452 :	00000001111111110000111100001011111110010000000011110000000000101111011100000010;
	451 :	11111100000000000000110100000101111110010000000011111011000000001111111111111111;
	450 :	00000000000000001111111100000011000000001111111100000000000000000000000011111111;
	449 :	00000000000000000000000000000000000000000000000000000000000000000000000000000000;
	448 :	00000000000000000000000000000000000000000000000000000000000000000000000000000000;
	447 :	00000000000000000000000100000000000000000000000000000000000000000000000000000000;
	446 :	11111111000000000000110011111111000000011111111111111010111111111111111111111110;
	445 :	00000001111111110001101011111110111101111111110000000001111110111111111111111010;
	444 :	00010001111111000001100011111111111010111111110100001001000000111111000111110000;
	443 :	00011000111110101111100000001001111110010000000100001100000001111111000011101001;
	442 :	00001101111110001111011000001001000001101111101100000011000100101111000111101110;
	441 :	00000100111101101111011000000111111111111111101100001101000110001110110011110111;
	440 :	00000111111100001110111100001010111111111111100000001000000110001111001000000001;
	439 :	11111101111010011111110100000111000100011111110000000001000101101110111011111101;
	438 :	11111100111001101111010111111110000011110000001011110110001000001111001100001000;
	437 :	11101111110111011111110011111111001000001111000111111010000110101111010100001111;
	436 :	11011100111101110000000011111010001001001110111011111101000000101111111000010111;
	435 :	11001110000011100000000000000000000110011110101100000100000000010000011100001001;
	434 :	11001100001100100000001100000010000001101110111000000111111011010000110011110110;
	433 :	11010101001001000000101000000101111110011111011000000011111001000001100011111000;
	432 :	11110010000001000000001000000111000011010000010000001111110101000001000111111011;
	431 :	00000100111011000000000111110111000100110000101000011011110101110000001000000010;
	430 :	00010000111000000000011011110011000100010000101000010100111000111111101111111101;
	429 :	00010011111011101111111011101011000100110000010100001110111001111111100100000011;
	428 :	00010001111110101111111011101010000110101111111100001010111010101110111100000101;
	427 :	00010011111110011111111011101101000101001111011100001100111101101110100100000111;
	426 :	00000100111101110000011111110110000011111111101100000111111111111110011100000101;
	425 :	00010001111111010000000011111110000010101111010100000000111111001110111100000100;
	424 :	00000101000000000000000000000110000001111111110011110001000000001111101000000110;
	423 :	11111101000000000000000000000000000000110000000011111101000000111111111000000001;
	422 :	00000000000000001111111100000001000000000000000000000000000000010000000011111111;
	421 :	00000000000000001111111100000001000000000000000000000000000000000000000000000000;
	420 :	00000000000000000000000000000000000000000000000000000000000000000000000000000000;
	419 :	00000000000000000000000000000000000000000000000000000000000000000000000000000000;
	418 :	00000000000000000000101111111111111111010000000011111011000000001111111100000000;
	417 :	00000001111111100001010111111111111111001111101011111100111111110000000011111100;
	416 :	00011000111111100000100111111100111110111111010100001011111111111111011011110000;
	415 :	00010100111111000000001011111000111110101111010100010110000011001110111011101110;
	414 :	00010000111110101111010111101111000000111111101100011000000011001110110111111010;
	413 :	00001100111101111111100000000000000001001111010100001010000010001111000100000001;
	412 :	11111110111100100000000011110110000011001111111000000010000101001110110100000100;
	411 :	11110111111010111111110011111100000100101111011011111101000111011111011100000110;
	410 :	11110101111001011111101000000011000101001111001011111000000101111111011100010001;
	409 :	11101111111010111111001000000100001000001110111111110010000100011111101100010110;
	408 :	11010001000000011111100011111000001000001110111000001001000001111111111100011000;
	407 :	11010010000111111111100100000100000010011110110100000110111110000000100100001100;
	406 :	11001110001100010000000000000110111111101111110011111011111011110000011011111101;
	405 :	11100001000111010000100000000101111101110000011111111010110100100001011100000010;
	404 :	11111011111111000000010000001000000100010000101000001100110000110001001111111001;
	403 :	00000100110110110000010011110101000110110001000000011010110100110000010100000000;
	402 :	00000011110110111111100111110011000110010001011000010001111010001111100100000010;
	401 :	00001011111100001111110011110011000110000000111000001110111010101110110000000010;
	400 :	00001011111110011111011111110100000110000000001100000111111100111110101100000110;
	399 :	00010000111110101111011011100110000110010000000000001000111110111110100000001001;
	398 :	00001010111111011110100011101110000101101111110000001010111111011111001000001110;
	397 :	00001001111111101110011011110010000101101111111100000110000001001111011000000111;
	396 :	11111101000000001110111111111001000011110000010111110111000000101111101100010001;
	395 :	11111110000000011111101000000001111111010000000011111111000001111111111100000100;
	394 :	00000000000000000000000000000000111111110000000000000000000000110000000011111110;
	393 :	00000000000000000000000000000000111111110000000000000000000000010000000011111111;
	392 :	00000000000000000000000000000000000000000000000000000000000000000000000000000000;
	391 :	00000000000000000000001100000000111111110000000011111111000000000000000000000000;
	390 :	00000000111111110000110000000000000000011111111111111001111111111111111111111110;
	389 :	00000101111111010001010000000000000000011111100111111000111111110000000111111000;
	388 :	00001111111110110000101011111011111101111110010100010101000000110000010011110011;
	387 :	00011010111110101111011111110011111110101101100100100100000000100000100011111000;
	386 :	00010000111110011111100011101001000001011110100000011000111111100000001000000110;
	385 :	00001000111110101111011111101011000010011110100100001111000000001111110100010100;
	384 :	11111101111101011111100011100100000100001111010000000000000001110000011100011000;
	383 :	11111100111100101111101011111011000001101111100111111101000001100000000100010011;
	382 :	11110011111100001111010000000011000011001111010111110111000011001111111000011000;
	381 :	11101101111111011111010100000110000101111110101011110110000011011111100100011001;
	380 :	11011001000000001110111000000110000100101110011011111111000100000000000100100010;
	379 :	11000111001001001110111000000000000010111110101011111110111111000000111000010100;
	378 :	11010001001101111111011100001100111110001111110011110111111000010000001000001110;
	377 :	11100001000100111111011100010100111110100001000011111110110001110001011100000001;
	376 :	11111110111101011111001100000011000100100010000000000111110001000001001011110101;
	375 :	00000110110101011111010111111011001001100001100100001011110110100000000011111111;
	374 :	00001010110111101110101111110001001000100001001000001011111100101111010100000101;
	373 :	00000111111011111110010011110111000101110000011100001010111101101111101100001001;
	372 :	00000110111111001110010011101101000101110000010100000110111110111111100100001110;
	371 :	00001100111110101100101111101000000110100000100100001000000001011111101100001111;
	370 :	00001010111111011100110111101101000101100000011100010000111111011111110000010001;
	369 :	11111111111111101101011111110000000010010000101100000100000001111111110100011000;
	368 :	11111011000000101110110111111010111110100000011011111010000100001111101000010101;
	367 :	00000000000000001111101011111111111101110000000011111111000011110000001000000000;
	366 :	00000000000000000000000000000000111111000000000000000000000010100000000011111011;
	365 :	00000000000000000000000000000000111111110000000000000000000000010000000011111111;
	364 :	00000000000000000000000000000000000000000000000000000000000000000000000000000000;
	363 :	00000000000000000000000000000000000000000000000000000000000000000000000000000000;
	362 :	11111111111111110000011000000000111111100000001111111001000000100000000111111110;
	361 :	00000001111111110000100100000001111111100000000111110111000000000000010111111011;
	360 :	00010111111111100000000111111011111110011101110100010000111111000001010111110101;
	359 :	00010101111111101111000011110011111110011101000100100001111111000001010100000110;
	358 :	00010111111110101111101011101010000000001100011100010011000000000001010000010001;
	357 :	00001001111110101111101011101010000010001101010000001000000000110001001000010110;
	356 :	00000010111101010000000011111000111111011101110111110111000001110001001100011011;
	355 :	11111111111100010000010100000001000001001110001111110011000000010000100100011011;
	354 :	11111101111110111111011000000011000000111110011111110111000100111111111000011000;
	353 :	11110000111110111110111000000110000011111110011111111000000101100000000100010110;
	352 :	11010011000010111110111000001001000110101110100011110101000110111111101100010011;
	351 :	11010000001001111110010000001101000001001111011111101001000010100000001000001101;
	350 :	11011101001111111101110000010000111001000000000011101010111011100000100100001111;
	349 :	11111011000100001101100100000110111101100001011100000101110100110001101000000010;
	348 :	00000010111100101101100000000100001000010001100100001101110111110000100111110011;
	347 :	00000001111000101101010111110111001000100001101000001100111101001111111100000101;
	346 :	11111111111010101101101111111101000111100001011000000010111101111111101100000110;
	345 :	00000000111101001101010111110001000101000000011100001001000001000000010100001111;
	344 :	11111110111100111101100011100011000110000000100100001000000011000000011000001100;
	343 :	11111111111110001100111111100110000011110000100000001011000011010000110100001110;
	342 :	00000110111111001101010111100110000010100001000100000101000000010000011000010100;
	341 :	11111101111111011110100011110010111110000000010011111111000011100000100000010111;
	340 :	11111001000000001111010111111010111101000000010011111101000101010000001000001001;
	339 :	00000000000000001111110100000001111101111111111011111110000110000000000111110111;
	338 :	00000000000000000000000000000000111110111111111100000000000011100000000011111001;
	337 :	00000000000000000000000000000000111111110000000000000000000000110000000011111111;
	336 :	00000000000000000000000000000000000000000000000000000000000000000000000000000000;
	335 :	00000000000000000000000000000000000000000000000000000000000000000000000000000000;
	334 :	11111101111111110000000000000000111111110000100011111010000000000000011011111111;
	333 :	11111010111111000000000100000000111110010001111011110010111111100000010111111011;
	332 :	00001101111110111111100111111001111100010001001011111110111110010001000011110110;
	331 :	00011000111110101111100111110100111011011111100100001010111110110001011011110111;
	330 :	00001110111101100000000111111001111101001101110111111100000011110001011100000111;
	329 :	00010000111101011111101111110111111110001101111111111101000011010000101000010101;
	328 :	00001011111011111111111100001000111110101101100111111010000011100000001100011001;
	327 :	00000100111100000000011000001011111111001110011011110010000011010000000000010010;
	326 :	11111110111110011111110000001001111111111110111011101101000110001111101100010000;
	325 :	11110011111110011111010100001100000010101111000011101001000110111111011100010101;
	324 :	11011110000100101111000100000110000101101110111111101110000111111111011000001010;
	323 :	11011101001010101110010100001110000000001111011011011101000101111111101100000011;
	322 :	11100110001011101101111000001101110101010000011011101110000011010001000011111000;
	321 :	11111110000100101101000100000111111000110010000100000010111111110000111011110011;
	320 :	11111010111100011101000011110110000101110001110100000110000000010000100111111100;
	319 :	11111100111100001101011011101111000100000001001000000001000001000000100100010010;
	318 :	11111011111100001101010111100110000101000000111100000001000010010000110100010011;
	317 :	11111001111010101110001011011110000100010000111100000100000010000001001000010001;
	316 :	00000001111101001110011111100000000010000000111100000000111110110001000000010110;
	315 :	00000100111100101110100011100001000001000000100000000101000011000001000100001010;
	314 :	11111101111100111110111011101011000001000001001011111001000001100000110000001101;
	313 :	11111010111110101111011111111001111111000000000100000000000010100000100000001001;
	312 :	11111010111111111111101000000101111101011111111100000000000101010000000111111100;
	311 :	00000000111111111111111100001001111111001111100011111110000011011111111111111011;
	310 :	00000000000000000000000000000000111111001111111100000000000011011111111111111001;
	309 :	00000000000000000000000000000000111111111111111100000000000001010000000011111101;
	308 :	00000000000000000000000000000000000000000000000000000000000000000000000000000000;
	307 :	00000000000000000000000000000000000000000000000011111111000000000000000100000000;
	306 :	11111011111111110000000100000000111111000001001011111011000000001111111011111110;
	305 :	11110010111111001111111011111111111101100011111111110000111111101111010011111000;
	304 :	00001111111101001111011011110110111010000011111011110011111101111111110111110010;
	303 :	00011001111011111111010011111000111000100010010111110110111110000000110011111010;
	302 :	00010010111010111111110100000000111101100000000111110011000010100000101111111101;
	301 :	00000111111010111111110000001001111110010000000111101110000100110000011111111101;
	300 :	00010000111010101111101000010001111110011111010011101011000100100000010100000011;
	299 :	00001000111100001111111100001100000001011110011111100101000111000000011100000001;
	298 :	00010000111101111111111100001101111110101110101011100011000110100000001100000100;
	297 :	00001010000001000000010000001111000001111110101011011010000111101111001000000000;
	296 :	11110111000100101111111100010101111111001111000011011110001001011110110011111100;
	295 :	11110010001010011111101000010000111011101111100011100100000111101110100111110111;
	294 :	00000001001001001111010000010000110100000000000011110000000110111111010111111001;
	293 :	00000101000011011110100011111110111100000000110111111110000011010000001011111000;
	292 :	00000101111110111111000111100001000001100001011011111000000001100000100000001000;
	291 :	00000100111110101111000111011010000001000001100011111111000000010000111000001010;
	290 :	11111110111100011111100011011100000001010000111111111100000001010000111100010001;
	289 :	11111110111011001111001111011110000001010001011111111100000001000001010100001000;
	288 :	11111101111110001111010011100111000000100000110000000000111111100000111100001110;
	287 :	11111011111100101111010011111000111111000000100000000000000001010001000000000110;
	286 :	11111110111100100000100111111010111100111111111011110100000001100000101100001011;
	285 :	11111111111110000000101000000011111110001111011111110101000011100000001100000001;
	284 :	00000000111111101111111000000111111110001111011111111101000100010000100111110100;
	283 :	11111111111111110000001100001010111110101111110011111111000011001111110111110111;
	282 :	00000001000000000000000011111111111111110000000011111111000001111111111111111100;
	281 :	00000000000000000000000000000000000000000000000000000000000000100000000011111111;
	280 :	00000000000000000000000000000000000000000000000000000000000000000000000000000000;
	279 :	00000000000000000000000000000000000000000000000000000000000000011111111100000000;
	278 :	11111100111111111111111111111111111111100000101111111100000000000000010011111110;
	277 :	11110010111110011111101011111101111101010011011111110011111111100000010011111001;
	276 :	00001000111100111111000011110000111100010100001111101111111110010000010111110011;
	275 :	00010010111010001111100111110010111111100010100011101101111101110001000111101110;
	274 :	00000111111001111111110000001101111111000001010111100101000001100000110011110011;
	273 :	00000001111011001111011100001010000000100001000011101110000010010000101011111000;
	272 :	00001000111010011111111000001111111111110000010011100011000010100000100111111110;
	271 :	00001110111011110000001000001100111111011111101011011011000100010000011100000010;
	270 :	00010001111110010000011100001011111111111111011011010011000011100000001000000011;
	269 :	00001111000000000000010000001011111111001110110111011000000111111111100100000000;
	268 :	00001011000010010000110000000101111100111110110111011110000110111111001100000011;
	267 :	11111001000110110000011000010110110111111110111111101000000110001110100100001011;
	266 :	00000011000011110000100000001110110101111111011011110011000110001111001100000110;
	265 :	00001100000000100000000011111001111100110000001111101100000011011111111000000110;
	264 :	11111110111110010000001011101010111110110000111111110001000100100000010000000101;
	263 :	11111111111101110000001111101011111110010001011011110100000011100000100000000000;
	262 :	00000110111011110000010111110001111110100000110011110100000001100000100100000100;
	261 :	11111101111010000000001011111011111110110000101111110111000000110000111100000001;
	260 :	11111011111011111111111011111000111110100000111111111010000010000000101111111111;
	259 :	11111101111101011111111100000011111111001111111000000000000010000000011111111100;
	258 :	11111010111101000000010000000001111110101111101011110101000010100000101100000110;
	257 :	11111001111101110000111000001010000000011111000111110101000011100000011111110101;
	256 :	11111100111111100000100100010101111110101110111011111111000100011111110111110000;
	255 :	00000000000000000000001100000100111110111111101111111110000100011111110111110111;
	254 :	00000000000000001111111100000000000000000000000000000000000001111111111111111100;
	253 :	00000000000000000000000000000000000000000000000000000000000000100000000011111111;
	252 :	00000000000000000000000000000000000000000000000000000000000000000000000000000000;
	251 :	00000000000000000000000000000000000000000000000100000000000000000000000000000000;
	250 :	11111011000000001111111100000000111110110000111111111011111111110000010011111111;
	249 :	11110010111110001111100111111011000000100010110111110111111111010000001111111001;
	248 :	11111111111010101110111011101110000000000011110111110001111110010000110111110110;
	247 :	00010000111011001111101011100101000000100010100011101001000000110001000011101011;
	246 :	00001100111100101111110000000010111111100000111011101000000010000000110111110011;
	245 :	00000101111101011111100100000110111110110000101011101100000000010000110000000011;
	244 :	00001011111100110000000000001100111110110000110011100101000011000000001111110110;
	243 :	00001010111111000000011000001001111110000000001111100001000011000000001111111101;
	242 :	00001111111110111111011100001010111111001111110111011001000110000000010000000001;
	241 :	00001011111111101111110100001110111100001111101111100101000110111111101000000001;
	240 :	00010111111101101111111100001100111000001111011111100101000110001111111000001101;
	239 :	00001111000001000000011100001100110111111111000011101010000101001111100000001111;
	238 :	00000111000000010000101000001100110101111111100111101100000011001111100000011000;
	237 :	00000010111110100000010000000110111010101111111111101111000010100000010100001011;
	236 :	00000111111110000000001111111100111011010000001011110110000110000000101011111001;
	235 :	00000001111011010000100000000001111101100000011111110110000101001111111011111111;
	234 :	00000000111010010001000111111111111100110000101011110011000100000000001011111010;
	233 :	00000110111001110000001100000000000000100000010111110110000010010000101011110110;
	232 :	11111011111010100000011011111111111110010000010111111001000011010000010000000010;
	231 :	11110111111101010000100000000110111111111111100111111100000100110000101111101101;
	230 :	11111001111101000000100000001011000000111111011011110011000100000000100111110011;
	229 :	11111100111110110000010100010000000010001111000011111010000011110000000011101111;
	228 :	11111100111111100000100100010011000000111110101011111110000011011111111111110001;
	227 :	11111111000000000000001000000010111111111111110011111111000011011111111011110111;
	226 :	00000000000000000000000011111111000000011111111100000000000001001111111111111101;
	225 :	00000000000000000000000000000000000000000000000000000000000000100000000011111111;
	224 :	00000000000000000000000000000000000000000000000000000000000000000000000000000000;
	223 :	00000000000000000000000000000000000000000000000000000000000000000000000000000000;
	222 :	11111100000000000000000000000000000000010000100011111111000000001111111111111111;
	221 :	11110001111110001111110011111101000000100010100011111011111111010000000011111001;
	220 :	11110110111011101111010111110101000001000010111011111101111111000000110111110000;
	219 :	00000111111111001110101011101101000011110001111111101111111111110000111011101101;
	218 :	00001011111110110000001011110011000011100001000011110010111111010000001111110000;
	217 :	00000101111111111111110100000001000000010000101111110001000000100000010111110110;
	216 :	00000011000000111111111011111110111110100000100011101110000000110000010100000100;
	215 :	00001010111111101111101100001000111110000000011111100111000001110000000100000010;
	214 :	00001101111100111111110011111111111011100000001111101110000011100000011000001101;
	213 :	00010001111011111111100100001011111011010000001111101100000011011111100100010110;
	212 :	00001000111011100000010100000010111000100000000011101001000010000000000000100001;
	211 :	00000111111010101111111000001100110111001111101011110011000001000000011000100011;
	210 :	00000101111101000000010000010001110111001111111011110110111111101111010100100100;
	209 :	00000110111101000000010100000111111010100000000011101111000001111111110000010110;
	208 :	00000001111100110000001000001001111000010000010011110111000010111111111000010011;
	207 :	00000110111100000000001100000001111011010000101111110101000101011111110100000011;
	206 :	11111100111101000000010000000100111101010000011111110110000100110000000111111101;
	205 :	11111010111001100000100000000011111101100000011111111001000101000000000000000000;
	204 :	11110110111010010000101100001000111111110000011111111001000011010000010111110000;
	203 :	11111101111100100000000100001000000001100000000111111111000100010000000011101100;
	202 :	11111100111101100001001100001110000001011111001111110110000011011111101011110000;
	201 :	11111101111110110000011100010100000010001111001011111110000001111111101111101110;
	200 :	11111101000000000000100100001111000000111111000011111111000000011111111111110111;
	199 :	00000000000000000000000100000100111111111111110011111110000001111111111011111101;
	198 :	00000000000000000000000111111111000000001111111100000000000000100000000011111111;
	197 :	00000000000000000000000000000001000000000000000000000000000000000000000000000000;
	196 :	00000000000000000000000000000000000000000000000000000000000000000000000000000000;
	195 :	11111111000000000000000000000000000000000000000100000000000000000000000000000000;
	194 :	11111011111111111111111100000000000000100000101011111110111111111111111111111111;
	193 :	11110101111110111111110111111110111111100001100111111100111111100000011111111110;
	192 :	11101101111110111111011111111010000001110010111111111101111110100000000111110101;
	191 :	11111101000000111110111011110100000101110001010100000010111110000000010111101100;
	190 :	00001011000001111111010011110010000011110000111111111101111110100000001011101100;
	189 :	00001010000010101111100111111010000000010000111011111100111111011111110011110010;
	188 :	00000111000001111111100111111111111111000000100111111011111101110000011111111000;
	187 :	00001000111110101111111011111111111111000000101011111001111101010000100111111110;
	186 :	00010000111111000000011000001010111011010000100011110100111100011111101100001001;
	185 :	00010001111011100000001100000011111100100000000111110111111110100000100000001010;
	184 :	00001011111100110000101100001100111001011111111111110100111110010000010100001110;
	183 :	00000110111011100000010100001100111001111111111011110101111111000000111100001111;
	182 :	00000111111110000000110000001100111001100000000111101100111100110000001000010110;
	181 :	00001001111110000000101100001111111001101111111011110000111101110000001100001100;
	180 :	00000010111101100000011100000111111100000000100011101111111111100000010000000101;
	179 :	11111110111101110000010100001010111011110000001111110000000010100000001000000011;
	178 :	00000001111101000000100000010000111101110000000111110001000010111111101111111011;
	177 :	11110100111010100001001100001101000000010000000111110111000001111111111011110100;
	176 :	11111100111011110000011000001111111111111111101111111101000011000000001011110011;
	175 :	11111011111101110000111000001000000000111111110100000000000001011111101111110100;
	174 :	11111011111110100000110000010010000001101111100011111000000010111111011111110000;
	173 :	11111100111111110000100000001011000001111111100111111101000000111111101111110111;
	172 :	11111110111111110000000100001010000000011111100100000000000001001111110011111101;
	171 :	00000000000000000000000000000110111111111111110011111110000000101111111011111111;
	170 :	00000000000000001111111100000001000000000000000000000000000000000000000000000000;
	169 :	00000000000000000000000000000000000000000000000000000000000000000000000000000000;
	168 :	00000000000000000000000000000000000000000000000000000000000000000000000000000000;
	167 :	00000000000000000000000000000000000000000000000000000000000000000000000000000000;
	166 :	11111111000000001111111100000000111111110000001100000001000000000000000000000000;
	165 :	11111100111111001111111011111111111111110000111011111111111111110000001011111111;
	164 :	11110110111111111111100011111010000001100001000100001000111111111111111011111100;
	163 :	11110011000001001111010011110011000101010001010100001010111111001111100011110111;
	162 :	11111101000011001111110111110110000010110000110000001001111110001111100111101111;
	161 :	00000001000100001111110011110000000000010000110100001011111100110000000011101111;
	160 :	00000001000010001111111011111011000001100000110000001011111011000000001011101001;
	159 :	00000000000001011111111100000010000010110000001100001101111010100000010111101010;
	158 :	00001011111111110000110011111111000001000000100000001010111010110000000011100101;
	157 :	00001111111101000001000100000001000000000000100100000000111010000000101011100101;
	156 :	00001011111110100001000100001011000000000000000111111100111010100000101111100010;
	155 :	00001111000001010000110100001011111101100000000011110110111001010000101111101110;
	154 :	00001000000000110001001000000101111110001111101111111111111010000000100111110011;
	153 :	00000111000000110000111100001000111011011111101111110110111010100000101100000000;
	152 :	00000001111111110001001100001011111100101111111011110011111011100000011011111011;
	151 :	00000010111100110001010100001010111101010000010111110000111100100000001011111101;
	150 :	00000100111101010001001000001101111101000000010100000011111110001111100011101110;
	149 :	11111100111100010000110100010010111111111111111111111111111111101111110111110000;
	148 :	00000000111100110001001000001011111111011111011000000010000001001111110011110110;
	147 :	11111011111111000000110000010011000000011111010011111100000000001111111011111000;
	146 :	11111100000000000000001100010011000000001111011000000001000001001111010111111101;
	145 :	11111011000001001111111100010000000000101111010011111011000001001111110111111111;
	144 :	11111111000000000000000100000110000000001111101100000000000000001111111100000000;
	143 :	00000000000000000000000000000011000000001111111111111111000000000000000000000000;
	142 :	00000000000000000000000000000000000000000000000000000000000000000000000000000000;
	141 :	00000000000000000000000000000000000000000000000000000000000000000000000000000000;
	140 :	00000000000000000000000000000000000000000000000000000000000000000000000000000000;
	139 :	00000000000000000000000000000000000000000000000000000000000000000000000000000000;
	138 :	00000000000000000000000000000000000000000000000011111111000000000000000000000000;
	137 :	11111111111111100000000000000000000000000000010011111110000000000000000100000000;
	136 :	11111000111110101111101011111110000010000001001011111111111111111111111011111111;
	135 :	11111001000000001111001111111000000010000001000000001111111111111111011011111110;
	134 :	11111011000000001111000111111010000011100000100100010011111111011111010111111100;
	133 :	11111101000000111110110111110100000010100001000000010001111111011111100111111000;
	132 :	11111010000010101111110011111101000010001111110000001110111111001111111011110111;
	131 :	11111010000001101111100000000011000000000000001000001111111110100000000111110100;
	130 :	11111001111111000000010100001010111101010000110000001010111110001111101111110010;
	129 :	00000001000000010000011100000010111100110000110000001110111101101111110011101100;
	128 :	11111011000000010000101000001110111101010000100000000010111100010000011011100100;
	127 :	00000101111111110000111100001100111010110000010111111101111100000000101011100111;
	126 :	11111100000001110001000100010001111010000000000111111110111011100000100011101001;
	125 :	11111100000100000001001000010000111011111111001111111110111100010000001111101111;
	124 :	11111001111110010001101100010101111010111111100111111101111101010000011011110001;
	123 :	00000001111110000001010000011000111011010000001111111110111100101111101111110010;
	122 :	11111111111101110001101000010101111010111111100000000100111101101111110111110111;
	121 :	00000000111110000001011100001110111100111111101000000010111110011111110011111010;
	120 :	11111111111111000000101000010001111110011111011100000110111111011111100111111110;
	119 :	11111100111111010000010100001101111111101111101000000011111111101111110111111111;
	118 :	11111011000000010000011100001010111111101111011100000000111111111111111000000000;
	117 :	11111101000000010000000000001001000000011111101111111111111111111111111000000000;
	116 :	00000000000000001111111100000001000000010000000000000001000000000000000000000000;
	115 :	00000000000000000000000000000000000000000000000000000000000000000000000000000000;
	114 :	00000000000000000000000000000000000000000000000000000000000000000000000000000000;
	113 :	00000000000000000000000000000000000000000000000000000000000000000000000000000000;
	112 :	00000000000000000000000000000000000000000000000000000000000000000000000000000000;
	111 :	00000000000000000000000000000000000000000000000000000000000000000000000000000000;
	110 :	00000000000000000000000000000000000000000000000000000000000000000000000000000000;
	109 :	00000000000000000000000100000000000000000000001011111101000000000000000000000000;
	108 :	11111111111111101111111100000000111111111111110100001001000000000000000000000000;
	107 :	11111111111111101111110011111110000000001111110000001100000000000000001000000000;
	106 :	11111100111111011111101011111011000000000000001100001111000000000000000100000000;
	105 :	11111001111111011111100011111011000000000000101000010001111111111111110111111111;
	104 :	11110111111110011111010100001010111111100000110000001111111111111111100111111110;
	103 :	11110101111110111111011100001011111111110000101100010010111111111111001011111110;
	102 :	11110111111110001111111100001100111101000000100100010000111111111111100011111110;
	101 :	11111000111110000000011100001011111101000000011000010010111111101111001111111011;
	100 :	11111100000000100000101100001101111011110000000100001100111111011111001111111000;
	99 :	11111101111111100000101000010001111011000000000100010010111111001111000011110110;
	98 :	00000010111110010001000000010101111011101111110100001001111111001111001011111000;
	97 :	11111111111111010001011000001101111001011111110000001111111111001111010011111001;
	96 :	00000000111101110001010100010100111001111111101000001100111111011111011111111011;
	95 :	00000011111101110001001100010001111011101111011100001101111110111111100011111101;
	94 :	11111011111110100001000100000110111100101111110100001101111111011111110011111110;
	93 :	11111101111111000000111111111111111100101111111000001101111111101111111011111111;
	92 :	11111111111111100000001000000111111101111111111000001000111111101111111000000000;
	91 :	11111101111111110000001000000011111110101111111100000111000000001111111100000000;
	90 :	11111101000000000000000000000001111111010000000000000100000000000000000000000000;
	89 :	11111111000000000000000000000011000000001111111100000000000000000000000000000000;
	88 :	00000000000000000000000000000000000000000000000000000000000000000000000000000000;
	87 :	00000000000000000000000000000000000000000000000000000000000000000000000000000000;
	86 :	00000000000000000000000000000000000000000000000000000000000000000000000000000000;
	85 :	00000000000000000000000000000000000000000000000000000000000000000000000000000000;
	84 :	00000000000000000000000000000000000000000000000000000000000000000000000000000000;
	83 :	00000000000000000000000000000000000000000000000000000000000000000000000000000000;
	82 :	00000000000000000000000000000000000000000000000000000000000000000000000000000000;
	81 :	00000000000000000000000100000000000000000000000011111111000000000000000000000000;
	80 :	00000000000000000000000100000000000000001111111100000000000000000000000000000000;
	79 :	00000000000000001111111100000000111111111111111100000010000000000000000000000000;
	78 :	00000000000000001111111100000000111111101111111100000110000000001111111100000000;
	77 :	11111111000000001111111100000000111111111111111000000110000000001111111100000000;
	76 :	11111111111111111111111000000000111111111111110000001010000000001111111100000000;
	75 :	11111110000000011111101111111111111111100000000000001011000000001111111011111111;
	74 :	11111110111111111111110111111111111110110000001000001101000000001111111111111111;
	73 :	11111100000000010000000011111111111110100000001000001011000000001111110111111111;
	72 :	11111010000000100000011100000000111101011111111100001111000000001111110011111110;
	71 :	11111010000001110000011011111101111110001111110100001110111111111111110011111110;
	70 :	11111011000000100000010100000000111101111111110000010010111111111111110111111110;
	69 :	11111101000001010000001100000000111101011111110000001111000000001111110111111110;
	68 :	11111110000000000000000000000000111100111111111000010110111111111111111011111110;
	67 :	11111111111111100000010000000000111110001111111000001101111111111111111011111111;
	66 :	11111111111111110000000011111111111101100000000000010000000000001111111111111111;
	65 :	11111111111111100000001111111111111110110000000000000111000000000000000000000000;
	64 :	00000000111111110000000000000000111110110000000000000110000000000000000000000000;
	63 :	11111111000000000000000000000000111110110000000000000110000000000000000000000000;
	62 :	11111111000000000000000000000000111111110000000000000010000000000000000000000000;
	61 :	00000000000000000000000000000000000000000000000000000000000000000000000000000000;
	60 :	00000000000000000000000000000000000000000000000000000000000000000000000000000000;
	59 :	00000000000000000000000000000000000000000000000000000000000000000000000000000000;
	58 :	00000000000000000000000000000000000000000000000000000000000000000000000000000000;
	57 :	00000000000000000000000000000000000000000000000000000000000000000000000000000000;
	56 :	00000000000000000000000000000000000000000000000000000000000000000000000000000000;
	55 :	00000000000000000000000000000000000000000000000000000000000000000000000000000000;
	54 :	00000000000000000000000000000000000000000000000000000000000000000000000000000000;
	53 :	00000000000000000000000000000000000000000000000000000000000000000000000000000000;
	52 :	00000000000000000000000000000000000000000000000000000000000000000000000000000000;
	51 :	00000000000000000000000000000000000000000000000000000000000000000000000000000000;
	50 :	00000000000000000000000000000000111111100000000000000010000000000000000000000000;
	49 :	00000000000000000000000000000000111111110000000000000010000000000000000000000000;
	48 :	00000000000000000000000000000000111111110000000000000010000000000000000000000000;
	47 :	00000000000000001111111100000000111111110000000000000010000000000000000000000000;
	46 :	00000000000000001111111100000000111111110000000000000010000000000000000000000000;
	45 :	00000000000000000000000000000000111111110000000000000010000000000000000000000000;
	44 :	00000001000000000000001100000000111111000000000000000001000000000000000011111111;
	43 :	00000000000000010000000000000000111111100000000000000010000000000000000000000000;
	42 :	00000000000000000000000100000000111111100000000000000010000000000000000000000000;
	41 :	00000000000000001111111100000000111111010000000000000101000000000000000000000000;
	40 :	00000001000000001111111100000000111110110000000000000111000000000000000000000000;
	39 :	00000001000000001111111100000000111111100000000000000011000000000000000000000000;
	38 :	00000000000000000000000000000000111111100000000000000010000000000000000000000000;
	37 :	00000000000000000000000000000000111111110000000000000001000000000000000000000000;
	36 :	00000000000000000000000000000000111111100000000000000010000000000000000000000000;
	35 :	00000000000000000000000000000000111111010000000000000011000000000000000000000000;
	34 :	00000000000000000000000000000000000000000000000000000000000000000000000000000000;
	33 :	00000000000000000000000000000000000000000000000000000000000000000000000000000000;
	32 :	00000000000000000000000000000000000000000000000000000000000000000000000000000000;
	31 :	00000000000000000000000000000000000000000000000000000000000000000000000000000000;
	30 :	00000000000000000000000000000000000000000000000000000000000000000000000000000000;
	29 :	00000000000000000000000000000000000000000000000000000000000000000000000000000000;
	28 :	00000000000000000000000000000000000000000000000000000000000000000000000000000000;
	27 :	00000000000000000000000000000000000000000000000000000000000000000000000000000000;
	26 :	00000000000000000000000000000000000000000000000000000000000000000000000000000000;
	25 :	00000000000000000000000000000000000000000000000000000000000000000000000000000000;
	24 :	00000000000000000000000000000000000000000000000000000000000000000000000000000000;
	23 :	00000000000000000000000000000000000000000000000000000000000000000000000000000000;
	22 :	00000000000000000000000000000000000000000000000000000000000000000000000000000000;
	21 :	00000000000000000000000000000000000000000000000000000000000000000000000000000000;
	20 :	00000000000000000000000000000000000000000000000000000000000000000000000000000000;
	19 :	00000000000000000000000000000000000000000000000000000000000000000000000000000000;
	18 :	00000000000000000000000000000000000000000000000000000000000000000000000000000000;
	17 :	00000000000000000000000000000000000000000000000000000000000000000000000000000000;
	16 :	00000000000000000000000000000000000000000000000000000000000000000000000000000000;
	15 :	00000000000000000000000000000000000000000000000000000000000000000000000000000000;
	14 :	00000000000000000000000000000000000000000000000000000000000000000000000000000000;
	13 :	00000000000000000000000000000000000000000000000000000001000000000000000000000000;
	12 :	00000000000000000000000000000000000000000000000000000000000000000000000000000000;
	11 :	00000000000000000000000000000000000000000000000000000000000000000000000000000000;
	10 :	00000000000000000000000000000000000000000000000000000000000000000000000000000000;
	9 :	00000000000000000000000000000000000000000000000000000000000000000000000000000000;
	8 :	00000000000000000000000000000000000000000000000000000000000000000000000000000000;
	7 :	00000000000000000000000000000000000000000000000000000000000000000000000000000000;
	6 :	00000000000000000000000000000000000000000000000000000000000000000000000000000000;
	5 :	00000000000000000000000000000000000000000000000000000000000000000000000000000000;
	4 :	00000000000000000000000000000000000000000000000000000000000000000000000000000000;
	3 :	00000000000000000000000000000000000000000000000000000000000000000000000000000000;
	2 :	00000000000000000000000000000000000000000000000000000000000000000000000000000000;
	1 :	00000000000000000000000000000000000000000000000000000000000000000000000000000000;
	0 :	00000000000000000000000000000000000000000000000000000000000000000000000000000000;
END;
